/**
  ******************************************************************************
  * @file    road32_data_params.c
  * @author  AST Embedded Analytics Research Platform
  * @date    2025-12-31T22:55:38-0800
  * @brief   AI Tool Automatic Code Generator for Embedded NN computing
  ******************************************************************************
  * Copyright (c) 2025 STMicroelectronics.
  * All rights reserved.
  *
  * This software is licensed under terms that can be found in the LICENSE file
  * in the root directory of this software component.
  * If no LICENSE file comes with this software, it is provided AS-IS.
  ******************************************************************************
  */

#include "road32_data_params.h"


/**  Activations Section  ****************************************************/
ai_handle g_road32_activations_table[1 + 2] = {
  AI_HANDLE_PTR(AI_MAGIC_MARKER),
  AI_HANDLE_PTR(NULL),
  AI_HANDLE_PTR(AI_MAGIC_MARKER),
};




/**  Weights Section  ********************************************************/
AI_ALIGNED(32)
const ai_u64 s_road32_weights_array_u64[389] = {
  0x805e71435f616f8U, 0x60d03eb8100b7f0U, 0xdd0d02f4effc0cf9U, 0x1dfef5db2207fbd7U,
  0xecfafc15274edc26U, 0x14e1f80e1202fe10U, 0xd8ead20ef0073513U, 0x1bed0c070aef94bbU,
  0xfae9f305fb07fa08U, 0xdb312d0afbc028feU, 0x1003ff15f35d3443U, 0xb781231701f50befU,
  0xfc21de1f544c0ddU, 0xfee20600eaf115efU, 0x1f6666db28f9dee6U, 0x94eae1fb0b0ec71bU,
  0x4f6e00c1fe906d0U, 0xf5e5b5a2142706f3U, 0x1a29180e3fe1f142U, 0xeaefe6ed09f5d91cU,
  0xd64202617af53200U, 0xfb19c40ad5e007f9U, 0x9f7f9e1e80710d6U, 0x22d5f71e5a190f08U,
  0x6de0afd9fb14092dU, 0xde6f9335136ab8eU, 0x1b19e705345af415U, 0x9355fdbbecf01f06U,
  0x3021d3eb2b5e3fb3U, 0xc516d0d90c1a5df0U, 0xb6af6edadc0c1211U, 0xe71618cef5355732U,
  0x33c53004e3022960U, 0x28ab815bdfa4fa1dU, 0x60f00e9dbfd3d58U, 0x15d8f6f8fc02e51aU,
  0x5040ffcf90ccac1U, 0x1a120d00e101fcfdU, 0xf996d90bf1b3f5dbU, 0xd090a09edf9fe04U,
  0xd31306f1f4dffcf6U, 0xd16aed2f10eaff6U, 0xf606f0fdfdfa00f7U, 0xfdd8000f0bfcee02U,
  0xf9e51181d31a140dU, 0x8080cfd010efd0bU, 0x810cb5e6de902dc7U, 0xc5b3ec038a16341bU,
  0xe1ebe208121805baU, 0x59222e2d5d0a71aU, 0xb8cca0c8e414f612U, 0x29e9dff507001e02U,
  0x351db416bed7dcbeU, 0xedc8d3a3480c8640U, 0xbd1de8f3e707072cU, 0x4509ff1124bed5ccU,
  0x26efb9d3c4d4cd11U, 0xf915eef8fddc2b0dU, 0x52f00c19b7ece126U, 0xf8f90bfa0ff9070aU,
  0xc2f0517e6fe0704U, 0xfa810de8d80006dbU, 0x704070ef8080305U, 0xeb1702f9e4e3fd02U,
  0xde1931d91f2304fcU, 0xfc02f20f12f1fceeU, 0x2e512291e0cef0aU, 0x1026e3c4d0e2f1faU,
  0x50004fdfb0af9faU, 0x1b49c5021ee73d65U, 0x38002eb8ef0ae5dfU, 0x5b1a26fc06dd1b08U,
  0xee0758f20b437b41U, 0x17520e4ac5fb17eeU, 0x3a6111f50614ef0dU, 0x18f2d84f17112e53U,
  0x2739fc2dd5f315U, 0x7f35421f25ec2edbU, 0xfb11ff1f440cfe53U, 0xf20b3642cb1bb2ebU,
  0xe0e3ebf01f0ffd2fU, 0x5d20607ccf730a3U, 0xd402fd9e9a3afd58U, 0x595d1afaecf6e809U,
  0x16eecb2911ee1e7fU, 0xe7dfea15c1ac0fd7U, 0x3f57f2d802f006dcU, 0xe023efcac704ff12U,
  0xdaf6f4080b8b9afaU, 0xd22fd92f09de11fdU, 0x19f82c1dbaa3fe11U, 0xf9f8f2d2e302909aU,
  0x9f7dc2b151bf6f9U, 0xd13ddef3cbdf413U, 0xe907030febf72502U, 0xfbbfebf51b3416f3U,
  0xf70d0f050d81b815U, 0xe8ea0500f7de0f0fU, 0x111210e7dd3e1d11U, 0x28080900ed0840baU,
  0x23f8f50407fadc09U, 0xbe250316f2291623U, 0x715fc2109eb1587U, 0x919bf1ef9f8fbd3U,
  0x22e081c2ffc92136U, 0x371dcf0b02c21ca8U, 0xcda81f524dad81cU, 0xea27e8401617303fU,
  0x2d4311e40210eff1U, 0x6c35242fb113d3e2U, 0x8b2efc1cfcdffb7U, 0xdd194719e51b03d3U,
  0x2a3bf0d29ce916ddU, 0x1d6e222f94de3f6U, 0xded91d4916d306fbU, 0xd7eff59f372ffeffU,
  0xc83c074603d31907U, 0xd07f7f4d600fde3U, 0x23dcdf04916b3104U, 0xdabf35d92808e928U,
  0x1308f7eff5cf0002U, 0xda1011e1c08d0f38U, 0xae1cc2bf02cf6e2U, 0x550504f2e1fec3f6U,
  0xf2e7f515ef008161U, 0xef06b1b0391a0a19U, 0x1c2207e801da00daU, 0x81bdc4fee9000b12U,
  0xeef908ec0918c20cU, 0x1c1d1bd4fb0c06faU, 0x2b4bce101f03fcdeU, 0x4e8110d0916050dU,
  0x2404241b04f4f4f5U, 0xf70b15c90aea0c08U, 0x4f8e2f920fe1413U, 0xfbca2a0aedf7f5fbU,
  0x1442b42f4312413U, 0x30300d80e0c0613U, 0xdcea1802d940c92cU, 0xb20e3b2b0d81dadeU,
  0x901fe21430f200eU, 0xced0c20fdd9f4e5U, 0x8ab05ff2006a019U, 0xc025f70e023b160aU,
  0xa7d1f5ee0421e640U, 0x151daae10bf603baU, 0xb9c319e5160e381dU, 0xde8e040b2823fdccU,
  0xe0a0fc6040b1e27U, 0x999f1112e617163dU, 0x2211050af7a4fc90U, 0x6c19fef8e9fd104fU,
  0x10170eb500ed011cU, 0x100e6db11f0a95aU, 0xf6329fdeaed03e9U, 0xf0a181adf809deeeU,
  0xf03e1ff828f9f3b1U, 0xff1b632601feefffU, 0xa5370c17f19e18f1U, 0x51f2ced19acf9fbU,
  0xf1fa11531ef4e8f3U, 0xcf16bf190ded1fbfU, 0x80fa919efa8e5faU, 0xdbd4f32415222c06U,
  0xf40021bf2712f21fU, 0xe405f4812602d7e1U, 0x20ace4000feb0b14U, 0xdd310709c61e1725U,
  0x2ae9e8f7a403cabfU, 0xc80ea8d6f4f3f607U, 0xb6bb050603a7102dU, 0xd1a0102054414d5U,
  0x5d0f0af00de904f7U, 0x3e21d08eeff23f0U, 0xb8faf6add120d914U, 0xa3330012e7eadd05U,
  0x13f9c50217e3ebebU, 0xfc9020aa4c719d5U, 0xefa14f4205fce6f3U, 0xda0c09dbef09edf5U,
  0xec14c4fe109cbd1eU, 0xf0eba71d2e11f0e6U, 0x1dfe0afce1b71100U, 0xe3e40dcc00f681beU,
  0x13aadeeb2025362cU, 0x5ae8fe8136108bebU, 0x1b10e10601e7c310U, 0x1d301ba69fd6bf38U,
  0x165cdd1ad13407f3U, 0xf208fef30af70eb7U, 0x1b031ae44417370aU, 0xbb045df604bbf126U,
  0xbf1c060edd04fcf1U, 0x67e05f01c3a0cf5U, 0xedc91759d9edc0f5U, 0x2f2a07f311d907e0U,
  0x81bdc70a00f7f418U, 0xdff806ea0813d60dU, 0x1b1508e7eefc0403U, 0x3150cd0c2203fadaU,
  0xea021ff20a10f5U, 0xd0e2011feee0df8U, 0x20e17f009dd0905U, 0xf604e90f160c0a0fU,
  0xefc4240e06f5ecfaU, 0x20c2d3fd52c18bdU, 0xfe12f5ed03160f1cU, 0x6f8e0120ff613d4U,
  0xf813cf09a5b11ef8U, 0xd9fbf30ae90f17f3U, 0xd0205e62d110a01U, 0xfe04fedb0d15d2d6U,
  0xffdf0b0ff3fe180eU, 0x352308fcd913130eU, 0x20f500fb260981fdU, 0xd9fbecf4f213eb0dU,
  0xc0f00af8f8de0617U, 0x71602160fca231bU, 0xce213e9f3fefefcU, 0xa23cd30ee92619ccU,
  0xb0508d6e9dde557U, 0xe8d0cddfebf9ef15U, 0xe83b64250c0f37b1U, 0xc030e00cae5039cU,
  0xda22ebe31df0f8f5U, 0xba8e51c2df1581f5U, 0xe7110a19f6cee10eU, 0xf995110bf3f9ddf3U,
  0xd66c578628f204a7U, 0x1fe17fe04f7f100U, 0xb1f0e228080bdfefU, 0xb0cde2650df0212U,
  0xe5090505fb0809ebU, 0xce0907ed09311515U, 0xf20300d9d381d2f3U, 0xeffb07f10ff8fa0fU,
  0x1c26b5f5e12802fbU, 0x70607fc14193fe0U, 0x250bf9f80802f60cU, 0xcef0e3d804db0724U,
  0xf9140704f82c0e8cU, 0x3259b525040206f7U, 0x2cd436eedf2c4208U, 0x68271116ccec21c1U,
  0xa2eeb9d441d8e521U, 0x1212245fe3e206e6U, 0xc59250e06bd0a00U, 0x54393045cd3ce4ebU,
  0x330611e62bfa0036U, 0xd92a7f291a1db326U, 0x3fd96e8491b21dbU, 0x155b2b32a259eb21U,
  0xdde20e73161617cbU, 0xf90ed80803f607dbU, 0x406c0ee10e802ecU, 0xee06f40f051407f2U,
  0xf7ff05e11c06f009U, 0xf0ff01d3f3fde3f9U, 0xf0e0f4f2fcf0060bU, 0xe61602fee11810f4U,
  0x5fa0afcd004c6ceU, 0xf400e8eefe01fe15U, 0xc7f8100905e50b08U, 0xfc1b09fe02f70581U,
  0x902f8f5fb06fc00U, 0xf318123ad3f80b03U, 0xf80b0af4fa08120cU, 0x3201910f4fafb05U,
  0xa48defcce40af9cfU, 0xff1120ff1f0fc0fU, 0xe628d7f4eaf0fd02U, 0x271c5bee2c18a8e6U,
  0xed03ec0c01ef05edU, 0x14f4d6364e09e605U, 0xfbea2a81f6eebf0bU, 0x400110308fff8fcU,
  0xb0f0e229061de0f5U, 0xfc0ae32a4deb161dU, 0xfaf70811f3fd0ef7U, 0xca080cf10f2b1d19U,
  0xfd12ffeac481bed4U, 0xeeef03040b060e07U, 0x1d24b0e7dd35fcf5U, 0x70a050151223fd9U,
  0x330ff0f9f5fbf8faU, 0xc5efdc1204e2052fU, 0xff1af00d04f80985U, 0xf4a1cc05fefd09f2U,
  0x152e9715089d13dbU, 0x461ee2e933efdf04U, 0xc9cf99f803ee0512U, 0xfe1b2220d90193edU,
  0x112e22cfe627efc5U, 0x1a0ff8eac2f7e70dU, 0xf70cdd27070e09b6U, 0x8074318d0ea3103U,
  0x8129e6b9eafaf9f7U, 0xfdea2118133dda03U, 0xf5f31e2c21dbf229U, 0xfe2b09abb881182bU,
  0xc3de2a2b10f05a08U, 0x20e00a0b4d150d15U, 0x3041b41371b67ceU, 0x17cef023e4eecc19U,
  0x101bf5f61a3c0214U, 0x5ae0fb312df3d5c7U, 0x1112cf10153013f1U, 0x689930fc161e5608U,
  0xcedef91306124030U, 0x71006f0ef19f5f2U, 0x2e1dc4e2f417fd53U, 0x45a0270a10ecdc26U,
  0x9f1019e7241db827U, 0x332a1100da010b01U, 0xf31785ed06a0f3faU, 0xbc1b3709192fe4U,
  0xdf363029eed4f9feU, 0x48262cf42a151af2U, 0xfb17c90b2b0d1a0eU, 0xf7ef274923ebf406U,
  0xacb23f78e041e81U, 0xbfbf7ba0439eb20U, 0x810ebd12160a1be3U, 0x91fc21684becf14U,
  0xc7fbf80001120aedU, 0xe8e06c1141b0304U, 0xe70ee8c90cf0d1fcU, 0x1c8f0fd1ce20f20U,
  0x29090a06de130e15U, 0x2708f0ecd61709e3U, 0xe618c5e2fa23061eU, 0x3ea0af80cccf906U,
  0xa0c08fdfb351ef7U, 0x1211d60904f005f1U, 0x2e44fed70294fbd3U, 0x2117db1f3a08ced3U,
  0x989eaa0d15fd010fU, 0x2e1a32ff051bebdaU, 0x61a05ea0e3e0323U, 0x1ec0fc19f312ecedU,
  0xbf4fa0d33eb0f81U, 0x80422fced132de2U, 0xfad49d9ca71514efU, 0xb21ff0a430004U,
  0xe6ef032e19e02229U, 0xe2fd221e55042117U, 0x2df7baf0fc100621U, 0x14f5e7247623eabfU,
  0xbfd02fd0e36ee16U, 0xa51b0ac7efeafef3U, 0x2122dfe50d7a14fbU, 0x61207ff0a1a55f5U,
  0xf89d1711c8fafc17U, 0xf71f15f1d8227f1bU, 0xce01203fe122838U, 0x1bf88226f6d5fb04U,
  0x1703f112f4df1b7dU, 0x284c19eb28a7eec3U, 0xeffff1294bed0cc0U, 0x9e86e3140b1517ecU,
  0x271735fae601edc8U, 0xedfdecda2034db32U, 0x10a71720f901fa12U, 0x1ce615142ced1f81U,
  0xceafaede62537e8U, 0xeaaa9884d2111c18U, 0xdd252212fb420506U, 0x1604f4f1eee0344dU,
  0xefffffffaU, 0xfffffffe0000001dU, 0xfffffffb00000008U, 0x14ffffffefU,
  0x13fffffffaU, 0xfffffffb00000014U, 0x180000000aU, 0xefffffffeU,
  0xfffffffa0000000fU, 0x2fffffffcU, 0x10fffffffcU, 0xfffffffffffffffeU,
  0xdfffffffcU, 0xfffffff80000000aU, 0x8ffffffffU, 0x700000013U,
  0x99b23f543c81a93eU, 0x9b1bb3ae32a6af3dU, 0x4430b93b542c4185U, 0x92958f3031a88e4eU,
  0xffffffc6U,
};


ai_handle g_road32_weights_table[1 + 2] = {
  AI_HANDLE_PTR(AI_MAGIC_MARKER),
  AI_HANDLE_PTR(s_road32_weights_array_u64),
  AI_HANDLE_PTR(AI_MAGIC_MARKER),
};

