/**
  ******************************************************************************
  * @file    road_cnn_data_params.c
  * @author  AST Embedded Analytics Research Platform
  * @date    2026-01-17T11:05:09-0800
  * @brief   AI Tool Automatic Code Generator for Embedded NN computing
  ******************************************************************************
  * Copyright (c) 2026 STMicroelectronics.
  * All rights reserved.
  *
  * This software is licensed under terms that can be found in the LICENSE file
  * in the root directory of this software component.
  * If no LICENSE file comes with this software, it is provided AS-IS.
  ******************************************************************************
  */

#include "road_cnn_data_params.h"


/**  Activations Section  ****************************************************/
ai_handle g_road_cnn_activations_table[1 + 2] = {
  AI_HANDLE_PTR(AI_MAGIC_MARKER),
  AI_HANDLE_PTR(NULL),
  AI_HANDLE_PTR(AI_MAGIC_MARKER),
};




/**  Weights Section  ********************************************************/
AI_ALIGNED(32)
const ai_u64 s_road_cnn_weights_array_u64[1505] = {
  0x3dc31a25becb3b3cU, 0x3e8621f93d639e80U, 0xbe8a32853e73e0aeU, 0x3db2d7f73df3e0aeU,
  0xbf02116e3e3af90eU, 0xbf810d4bbf208d84U, 0xbe9664273e02116eU, 0x3e32d7f73da295caU,
  0x3e8a3285bde39e80U, 0xbd639e80bd431a25U, 0xbc02116e3da295caU, 0xbe8e43103de39e80U,
  0xbe1a74b3beb2d7f7U, 0x3dd35c533d639e80U, 0xbd431a25be8e4310U, 0x3e7c01c53d431a25U,
  0xbf0a32853e8621f9U, 0x3e7c01c5bebaf90eU, 0x3e3af90ebe1a74b3U, 0xbe12539c3e0a3285U,
  0x3db2d7f73db2d7f7U, 0xbcc31a25bda295caU, 0xbe2295ca00000000U, 0x3cc31a25be0a3285U,
  0x3e2ab6e0bd2295caU, 0x3c02116e3d92539cU, 0x3e02116e3e32d7f7U, 0x3e1a74b3bdf3e0aeU,
  0x3e5b7d6abebf099aU, 0xbeb2d7f73d2295caU, 0x3c82116eU, 0x3e9664273e0a3285U,
  0xbe1a74b33e5b7d6aU, 0xbdd35c533e6bbf97U, 0xbe82116ebe1a74b3U, 0xbc82116ebe02116eU,
  0x3e639e803dc31a25U, 0xbe8621f9bedf8df5U, 0x3e4b3b3c3e431a25U, 0xbe9a74b33ea295caU,
  0x3e8621f93e8a3285U, 0xbd02116e3f0a3285U, 0x3d02116e3df3e0aeU, 0x3dc31a253e1a74b3U,
  0xbcc31a25bc02116eU, 0xbe431a25bda295caU, 0xbebc92093c5b6d6cU, 0xbdcdb695bf2edb32U,
  0x3e692443bea1245bU, 0x3ddb6d6cbf45244fU, 0x3d249211bca49211U, 0x3e2492113f0248f8U,
  0xbec36d74bed49201U, 0x3f33ffc3be1db6a6U, 0xbf15245fbe2b6d7cU, 0xbeab6d7cbe0248f8U,
  0xbea492113e0248f8U, 0xbe85b6ae00000000U, 0xbf57ffb6bd3fffbeU, 0xbe3248e8bf1a48f0U,
  0xbf0fffcf3d96db3aU, 0xbea492113e249211U, 0x3eca48e03e2b6d7cU, 0x3dbfffbe3d892464U,
  0xbda49211bd3fffbeU, 0xbda492113ec36d74U, 0xbe2b6d7cbed49201U, 0xbcdb6d6cbe2b6d7cU,
  0x3d5b6d6cbe7db685U, 0xbefdb685be6fffaeU, 0x3e2b6d7cbefdb685U, 0x3f0248f8be092464U,
  0x3e3248e8bf59b691U, 0x3e7db685be1db6a6U, 0x3d76db1a3eb92453U, 0xbd76db1a3ca49211U,
  0x3ef6db1abe692443U, 0xbefa48cfbe3248e8U, 0xbe9db6a63d76db1aU, 0xbe2b6d7cbd76db1aU,
  0x3ca49211be092464U, 0xbf4db695be0248f8U, 0xbe936d85bf3e48e4U, 0xbf46db2abda49211U,
  0xbddb6d6c3db248e8U, 0xbd96db3a3f22db36U, 0x3ea1245b3d249211U, 0xbdb248e8bd96db3aU,
  0xbe76db1a3f1f6d80U, 0xbd76db1abecdb695U, 0x3bdb6d6cbe8fffcfU, 0xbd5b6d6cbecdb695U,
  0x3ef0c7e73ee5ffe8U, 0x3d2c7feebf33afedU, 0xbd65ffe8be3adfecU, 0xbee267e8be2c7feeU,
  0x3e65ffe83e7b8fe6U, 0xbdbadfec3f579feaU, 0xbe815ff2bedecfe9U, 0x3f0fbff1be506feaU,
  0xbdf45fe6be16eff0U, 0x3f420fec3e745fe6U, 0xbd493feb3ebe77ecU, 0x3e579feabe65ffe8U,
  0xbe84f7f23eb3afedU, 0xbe1e1ff0bd2c7feeU, 0xbe9e1ff03be5ffe8U, 0xbdf45fe6beed2fe7U,
  0x3f0c27f1be84f7f2U, 0xbe579fea3d0fbff1U, 0xbeccd7eb3d8fbff1U, 0x3dac7fee3f5d03e9U,
  0x3e888ff2be254fefU, 0x3ea1b7ef3f609be9U, 0xbedb37e93e254fefU, 0x3e8fbff13ebadfecU,
  0x3d65ffe8bf33afedU, 0x3d493febbf015ff2U, 0x3e7b8fe6bdbadfecU, 0x3f0df3f13e16eff0U,
  0x3d8fbff13f18bbf0U, 0x3e088ff2be493febU, 0x3f609be9bebe77ecU, 0xbdd79feabe815ff2U,
  0x3f3cabec3e3adfecU, 0x3e3adfec3e888ff2U, 0x3e745fe6bec20fecU, 0x3e5ecfe93e65ffe8U,
  0xbe16eff0bce5ffe8U, 0xbf28e7eebe506feaU, 0x3e1e1ff0be088ff2U, 0x3eac7fee3f420fecU,
  0xbe33afedbea8e7eeU, 0xbe2c7feebe506feaU, 0xbd9e1ff03f6433e8U, 0x3ea8e7eebebadfecU,
  0x3e254fef3f4cd7ebU, 0xbe8c27f13dac7feeU, 0xbe32b868be4d00b4U, 0x3ebd3bba3dfc4fa2U,
  0xbe2835173eb01794U, 0xbf26e4adbe2d76c0U, 0xbc2835173df1cc51U, 0x3eaad5ebbf1f0230U,
  0xbee4a82b3e427d63U, 0x3e6c8aa83e1db1c6U, 0x3eec8aa8bd283517U, 0xbf04b9e43e2d76c0U,
  0x3d88ab23bdb2b868U, 0xbe620757bcfc4fa2U, 0x3e98701dbe80c8a6U, 0x3ead76c03eaad5ebU,
  0xbe0deccbbe620757U, 0x3d52425d3dd2425dU, 0xbf20529a3e427d63U, 0x3e6c8aa83ea83517U,
  0x3e3d3bbabea0529aU, 0xbdc7bf0b3e95cf48U, 0x3e4d00b43ea2f36eU, 0x3d132e74becd00b4U,
  0x3d7c4fa2bd283517U, 0xbe674900be908da0U, 0x3eaad5eb3e47bf0bU, 0xbd132e743ed4e331U,
  0x3e578405be47bf0bU, 0x3dd2425d3df1cc51U, 0x3e578405bf1db1c6U, 0x3e6c8aa83e620757U,
  0x3e4d00b4bd132e74U, 0x3e88ab233df1cc51U, 0xbf04b9e43e3d3bbaU, 0xbdd2425dbcd2425dU,
  0xbe3d3bbabdbd3bbaU, 0x3e71cc51be52425dU, 0x3eba9ae63ebd3bbaU, 0xbe578405be0deccbU,
  0x3d7c4fa23e620757U, 0xbe9b10f13df1cc51U, 0x3e3d3bba3e83697aU, 0x3e5cc5ae3edcc5aeU,
  0xbda835173e770dfaU, 0x3e132e743ee74900U, 0x3ddcc5aebeaad5ebU, 0x3e18701d3db2b868U,
  0x3e3bb6463e84b167U, 0xbd353d3bbef2bb26U, 0x3ec56bd73e690595U, 0x3e84b1673e94e003U,
  0x3e628c8a3e9e9594U, 0x3da84b243ebef2ccU, 0xbe1b590ebd690595U, 0x3f0cc8b5be14e003U,
  0xbeffad3cbd8174e1U, 0x3e6905953de90595U, 0xbe1b590e3e8b2a72U, 0x3e284b24be21d219U,
  0xbdb53d3bbe9b590eU, 0xbf456bd73ed25deeU, 0xbf4d83253de90595U, 0x3ccf2168be7c70b7U,
  0xbe7c70b73d4f2168U, 0xbef934313dc22f52U, 0xbea1d21900000000U, 0xbd4f21683eb200b5U,
  0x3d4f2168be4f2168U, 0x3ea1d2193db53d3bU, 0xbd9b590ebd4f2168U, 0xbd1b590e3eb200b5U,
  0xbdb53d3bbeb200b5U, 0xbd8e66f83e0e66f8U, 0x3dcf21683ea1d219U, 0x3f3d54893d4f2168U,
  0xbe94e0033de90595U, 0xbe8b2a7200000000U, 0x3ee905953c4f2168U, 0xbe75f7acbe07edecU,
  0x3e7c70b73ddc137eU, 0xbe284b243e2ec430U, 0x3e8b2a72bdcf2168U, 0x3e21d219bd353d3bU,
  0x3e1b590e3f2d25edU, 0xbf21d2193e87edecU, 0xbd4f2168bbcf2168U, 0x3ddc137e3e2ec430U,
  0xbe3bb646be4f2168U, 0x3d4f2168be422f52U, 0xbd353d3b3e91a37dU, 0x3ea1d219becf2168U,
  0x3e9b590e3e3bb646U, 0xbe628c8abd1b590eU, 0xbe588b49bd1d7c92U, 0xbe27545b3d89cd00U,
  0x3d1d7c923e3b03edU, 0xbf1ff284bd6c3adbU, 0x3f112ed73ef612a4U, 0x3f94dfc2be7fea6dU,
  0x3e84e11bbe9d7c92U, 0x3dc4dbb6be588b49U, 0xbe27545bU, 0x3e09cd00bd1d7c92U,
  0x3c1d7c92bdc4dbb6U, 0xbd9d7c923dd88b49U, 0x3d44dbb63ed88b49U, 0xbd6c3adb3ed39f64U,
  0x3d89cd00beec3adbU, 0xbe7612a43e93a4c9U, 0x3e13a4c9bec9c79bU, 0xbf312c24bf9c4199U,
  0x3d89cd00bd9d7c92U, 0xbe3b03edbd89cd00U, 0x3d44dbb63db12c24U, 0x3d89cd003e312c24U,
  0xbe27545b3d6c3adbU, 0xbeb61809bdb12c24U, 0xbf2268773e626312U, 0xbe84e11b3e588b49U,
  0xbe09cd00bc1d7c92U, 0x3f161abb3edd772dU, 0x3f9269d03f09cd00U, 0x3e8eb8e43f8c42f2U,
  0xbe9d7c92U, 0xbd9d7c923d89cd00U, 0x3c1d7c923e1d7c92U, 0x3cec3adb00000000U,
  0xbe27545b3c1d7c92U, 0x3f0eb8e43e626312U, 0xbec4dbb63e588b49U, 0x3d44dbb63d9d7c92U,
  0xbf112ed7bd44dbb6U, 0xbd44dbb6bef126c0U, 0xbf69c4e9bf83a622U, 0x3e626312bf112ed7U,
  0xbeceb380be13a4c9U, 0x3e09cd0000000000U, 0xbd1d7c92be13a4c9U, 0xbe09cd00U,
  0x3ee061f53edac5e9U, 0x3ebeb9aa3ee5fe02U, 0x3dd529dc3e896f33U, 0xbe22ad6b3eab177eU,
  0xbec455b73ea57b72U, 0xbe3eb9aa3edac5e9U, 0xbdbeb9aabe896f33U, 0x3f284978bdbeb9aaU,
  0xbe11d946be010520U, 0x3f0808303e391d9eU, 0xbe977552bd9d115fU, 0x3ef6d2273d86a12dU,
  0x3f0c3d393f1e7862U, 0x3d91d9463f0ad636U, 0x3e8105203e8c3d39U, 0xbbb38191bea84978U,
  0x3e1775523e1d115fU, 0xbeb64f973e010520U, 0xbdf6d2273d76d227U, 0xbe2de5843f214668U,
  0x3d1d115fbd91d946U, 0x3dd529dc3eff3c3aU, 0xbd9d115fbdbeb9aaU, 0x3ee32ffc3f026c23U,
  0x3f096f333ec9f1c3U, 0x3d9d115f3e06a12dU, 0x3e9775523e9a4359U, 0x3ebeb9aa3e177552U,
  0xbe6b9a0ebcb38191U, 0x3d86a12dbe810520U, 0x3f321a8ebe896f33U, 0xbe810520beab177eU,
  0x3ee8cc083d91d946U, 0xbe49f1c33d06a12dU, 0x3eab177ebe010520U, 0x3e9775523e83d326U,
  0x3e83d3263f177552U, 0x3d1d115f3ed529dcU, 0x3c86a12d3bb38191U, 0x3ec455b73dbeb9aaU,
  0xbf010520be83d326U, 0x3d86a12dbf11d946U, 0xbe91d9463f26e275U, 0x3d1d115f3c338191U,
  0x3f214668U, 0xbe06a12dbdbeb9aaU, 0x3dd660efbe0b589bU, 0x3e40f0d7bd00a08fU,
  0xbeab80bf3e20c8b3U, 0x3cab80bf3e00a08fU, 0xbd80a08fbeb638cbU, 0x3ea0c8b3bec64cddU,
  0xbef68913bea0c8b3U, 0x3c2b80bf3d00a08fU, 0x3e40f0d7bdab80bfU, 0x3d2b80bf3e00a08fU,
  0xbdab80bf3c2b80bfU, 0xbe1610a7be4ba8e3U, 0x3debd107bf00a08fU, 0x3eb638cb3d9610a7U,
  0xbe00a08fbea0c8b3U, 0x3dc0f0d73dc0f0d7U, 0xbec0f0d73ec64cddU, 0x3d80a08f3edbbcf5U,
  0xbdc0f0d73e3638cbU, 0x3cab80bf3e0b589bU, 0x3dd660ef3e85fc95U, 0x3d80a08f00000000U,
  0x3dc0f0d7bdab80bfU, 0x3dab80bfbe9610a7U, 0x3e9b6cad3eb638cbU, 0xbed104e93e9b6cadU,
  0x3dc0f0d73d2b80bfU, 0xbf0e069e3d2b80bfU, 0xbfaa29bebf1b6cadU, 0x3e80a08fbe768913U,
  0x3d80a08f3e1610a7U, 0x3dc0f0d73d80a08fU, 0xbe0b589bbd00a08fU, 0x3d00a08f3dc0f0d7U,
  0xbebb94d13debd107U, 0xbee67501be768913U, 0x3d00a08fbd80a08fU, 0xbdebd107be9b6cadU,
  0x3ebb94d13e1610a7U, 0xbe6118fb3e9610a7U, 0x3e90b4a1bf793716U, 0x3d5660ef3e6bd107U,
  0xbe3638cb3e3638cbU, 0x3e6118fb3d5660efU, 0x3debd107be4ba8e3U, 0x3d80a08fbcab80bfU,
  0x3e1d917e3e5c987eU, 0xbf95b09fbeccd6beU, 0xbf088f29bf0b2f74U, 0x3e088f29bd2812a9U,
  0xbdbd14febe131054U, 0x3e1d917e3ee1d913U, 0x3e8dcfbf3e931054U, 0x3edc987ebd7c1bfeU,
  0xbe1d917e3e521753U, 0x3d7c1bfe3ca812a9U, 0xbe719ad3bd521753U, 0x3de719a8be2812a9U,
  0x3c2812a9bec25593U, 0xbea2d2143e3293d4U, 0xbf9700c43ec25593U, 0xbe3293d43e9d917eU,
  0x3eec5a3ebe1d917eU, 0xbead533e3e2812a9U, 0xbde719a8bd2812a9U, 0x3e9d917e3f088f29U,
  0xbdfc1bfebe5c987eU, 0x3e5217533d2812a9U, 0xbdbd14febdd21753U, 0x3e088f293e834e94U,
  0xbfa6c284bf22d214U, 0xbe6719a8bf873f04U, 0x3e479629be3d14feU, 0x3f088f293d931054U,
  0x3de719a83e521753U, 0x3eec5a3e3eb7d469U, 0x3f2812a9be8dcfbfU, 0xbe9d917e3da812a9U,
  0x3ea812a93dfc1bfeU, 0xbdd21753bda812a9U, 0x3e931054bd7c1bfeU, 0x3e2812a9bec25593U,
  0xbf0dcfbf3e521753U, 0xbf873f04bd7c1bfeU, 0xbe2812a9bcfc1bfeU, 0x3d5217533eb293d4U,
  0xbd931054bdfc1bfeU, 0xbead533ebd931054U, 0x3ea812a93f00ae49U, 0x3dbd14febe521753U,
  0xbdd217533dfc1bfeU, 0x3cfc1bfebe834e94U, 0xbe8c99083ddab528U, 0xbf1080d6bdcb15efU,
  0xbcf9f39cbf6c4849U, 0xbcf9f39cbf77ffb5U, 0xbdabd77bbeabd77bU, 0x3f0c9908beee3c31U,
  0xbd5ab5283dabd77bU, 0xbe3b76b5beafbf4aU, 0xbdf9f39c3ee284c5U, 0x3ecb15ef3cf9f39cU,
  0x3d1c38423dbb76b5U, 0x3e9c3842bdf9f39cU, 0xbe9c3842be7223ffU, 0xbd8c9908bf1c3842U,
  0x3e04c96b3dea5462U, 0x3e52e58cU, 0xbd5ab5283ea02010U, 0x3e2407de3e3b76b5U,
  0xbe0c99083e80e19cU, 0x3edab528bbf9f39cU, 0x3d9c38423d1c3842U, 0x3d79f39c3e6284c5U,
  0xbe04c96b3e2bd77bU, 0xbe6284c53e434652U, 0xbebb76b53e985073U, 0xbe4b15efbf760bceU,
  0xbd1c3842bf434652U, 0xbd79f39cbf1c3842U, 0x3e8c9908bea02010U, 0x3e88b139bd1c3842U,
  0xbe88b139U, 0x3cf9f39c3ed6cd5aU, 0x3dbb76b53e84c96bU, 0x3cf9f39c3dea5462U,
  0x3d8c9908be0c9908U, 0xbed6cd5abebb76b5U, 0xbe33a718bed2e58cU, 0x3d1c38423c79f39cU,
  0xbdcb15efbcbb76b5U, 0xbe84c96b3f1468a5U, 0x3ea7efad3e2bd77bU, 0xbd5ab5283dbb76b5U,
  0x3f06bd52be79f39cU, 0x3e1468a5be33a718U, 0x3d5ab5283e80e19cU, 0xbdabd77b3bf9f39cU,
  0xbf3f89f2bd912a92U, 0x3df1f19d3eb16cebU, 0x3ec18e183e0919fbU, 0xbc810965bf0511b0U,
  0xbee9e107be61d071U, 0x3e0109653c010965U, 0xbe69e107bd810965U, 0xbe112a92bea95c55U,
  0xbc8109653c810965U, 0x3cc18e183ea14bbeU, 0xbe8511b03ea95c55U, 0x3de1d071bdc18e18U,
  0xbf214bbebd214bbeU, 0xbf3b81a7bf800752U, 0xbe397d81bcc18e18U, 0x3cc18e18be418e18U,
  0x3f193b28U, 0x3f0b1e213e51af44U, 0x3c010965be499eaeU, 0x3d912a92be69e107U,
  0x3e71f19dbe316cebU, 0x3e397d813e9d4373U, 0xbc810965bea55409U, 0xbf3f89f2bdf1f19dU,
  0x3e69e1073ef1f19dU, 0x3e8d22463e61d071U, 0xbe7a0234bf0511b0U, 0xbe214bbebdc18e18U,
  0xbe0919fbbd010965U, 0xbd010965bdc18e18U, 0xbd61d0713e71f19dU, 0xbe295c553e316cebU,
  0x3e0109653e993b28U, 0xbea95c553e214bbeU, 0x3db16cebbd010965U, 0xbed9bfda3dc18e18U,
  0xbf43923dbf69e107U, 0xbcc18e18bead64a0U, 0x3c0109653dc18e18U, 0xbdb16ceb3e8511b0U,
  0x3f132eb73e59bfdaU, 0x3e214bbebdd1af44U, 0x3db16cebbe112a92U, 0x3e8511b0be61d071U,
  0x3dc18e183e499eaeU, 0xbe193b28be7a0234U, 0x3da14eb1bea71181U, 0x3d66706bbcb859efU,
  0xbee0ad9b3ec9a25dU, 0xbe3859efbdb859efU, 0xbe4f652d3d3859efU, 0x3e2cd450bec3df8eU,
  0xbea71181be95c912U, 0x3da14eb1bd3859efU, 0x3e3859efbe214eb1U, 0xbd3859ef3cb859efU,
  0x3dcf652d3e2cd450U, 0xbe95c912be4f652dU, 0x3dcf652d3de6706bU, 0x3d3859ef3e15c912U,
  0xbd0a4373bebe1cbeU, 0xbd66706b3d8a4373U, 0xbe9006433e4f652dU, 0xbfb6e93bU,
  0xbe43df8ebed527fcU, 0x3cb859ef3e214eb1U, 0x3db859ef3da14eb1U, 0xbc3859efbdcf652dU,
  0xbd66706bbd8a4373U, 0xbd0a4373be71f60aU, 0x3d8a4373be3859efU, 0xbeb297203de6706bU,
  0x3de6706b3c3859efU, 0xbcb859ef3e3859efU, 0x3da14eb1bee6706bU, 0xbe4f652d3e3859efU,
  0xbdcf652d3c3859efU, 0x3cb859ef00000000U, 0x3dfd7ba93e15c912U, 0xbe3859ef3e3859efU,
  0xbe71f60abe15c912U, 0x3d0a43733da14eb1U, 0x3da14eb1U, 0x3de6706bbe214eb1U,
  0x3d66706b3d3859efU, 0xbe43df8ebe43df8eU, 0x3de6706bbf2fb5b8U, 0x3d3859ef3e43df8eU,
  0x3d0a4373bd0a4373U, 0x3de6706b3e4f652dU, 0xbd3859ef3e2cd450U, 0xbe15c912be0a4373U,
  0xbe8c18583efdaf8cU, 0xbe79e63d3e4c768fU, 0xbe977444bf33da11U, 0x3d1774443d177444U,
  0xbf0c1858U, 0x3e8485bc3ea6997eU, 0x3df253a0bf59b722U, 0x3e8485bcbee6f7b4U,
  0xbe26997e3f11c64eU, 0x3f2c47743e0fe1a7U, 0x3e3d5155bd977444U, 0x3ef9e63d3e2e2c1bU,
  0x3c7253a0be35beb8U, 0xbf3d5155bf4c768fU, 0x3d7253a0be977444U, 0xbe3d51553e0fe1a7U,
  0x3ed03fdebd35beb8U, 0x3d35beb8bd177444U, 0xbe1774443ea2d030U, 0x3eee8a523ed03fdeU,
  0xbe26997e3d54092cU, 0xbcf253a03f3010c2U, 0xbd884f0a3e1f06e1U, 0xbe4c768f3edb9bc9U,
  0xbed03fde3e177444U, 0x3f2e2c1b3ea2d030U, 0x3e44e3f23e1f06e1U, 0x3ec4e3f2beb1f56aU,
  0x3de32e663e26997eU, 0x3ec4e3f2bd54092cU, 0x3eaa62ccbdc4e3f2U, 0x3e00bc6d3f22d030U,
  0x3f13aaf63e084f0aU, 0x3e4c768f3de32e66U, 0x3eb988063dd4092cU, 0x3e1f06e13dd4092cU,
  0xbf706ef9bf503fdeU, 0x3cf253a0be44e3f2U, 0xbdb5beb83cb5beb8U, 0xbe54092c3f4a91e8U,
  0x3e084f0a3eb5beb8U, 0xbeae2c1b3e8c1858U, 0x3f35beb83ee6f7b4U, 0xbe084f0a3d54092cU,
  0xbd1774443f5d8070U, 0x3d35beb83cb5beb8U, 0xbed4e234be9504beU, 0xbcaa4e90bdea2c06U,
  0xbeca3d4b3ec4ead6U, 0x3caa4e90bdff75d8U, 0x3cff75d83e3f9862U, 0x3f125b843e2a4e90U,
  0x3e9504be3dff75d8U, 0x3e3f98623dff75d8U, 0x3e9a57323c2a4e90U, 0xbdaa4e903e34f379U,
  0xbe2a4e9000000000U, 0xbdff75d8bcaa4e90U, 0x3e1fa9a73e2a4e90U, 0x3e3f98623eaa4e90U,
  0x3dbf9862be8a5fd5U, 0xbea4fc1c3e0a5fd5U, 0x3dd4e234be1fa9a7U, 0xbee4d992bf9e550aU,
  0x3dd4e234bd7f75d8U, 0xbe2a4e903d9504beU, 0x3caa4e903dd4e234U, 0x3e6a2c06be4a3d4bU,
  0xbcff75d8bdea2c06U, 0xbeef7e7abe6a2c06U, 0x3d54e234be850d60U, 0xbe8a5fd53ec4ead6U,
  0xbf5f871dbe54e234U, 0x3e3f98623eaa4e90U, 0x3f050d60befa2364U, 0xbedf871d3e7f75d8U,
  0x3d54e2343dea2c06U, 0x3e6a2c063c2a4e90U, 0xbd9504be3daa4e90U, 0xbd2a4e903e2a4e90U,
  0xbe850d60be0a5fd5U, 0x3e8a5fd53e2a4e90U, 0x3e2a4e903eea2c06U, 0x3dff75d8be2a4e90U,
  0xbd54e234bf1d006dU, 0xbf42419cbeb4f379U, 0xbd54e234bfa8f9f3U, 0xbdd4e2343cff75d8U,
  0xbd54e2343dea2c06U, 0xbcaa4e903e1fa9a7U, 0x3cff75d800000000U, 0xbe2a4e903dea2c06U,
  0x3e5a9608bec24c79U, 0x3eb627b13d424c79U, 0xbeb0154e3e3627b1U, 0x3e1dde223d424c79U,
  0xbd11b95bbec24c79U, 0xbf99505700000000U, 0x3dc24c79be3627b1U, 0x3e1dde22bd424c79U,
  0x3e2a02eabd424c79U, 0x3daa02eabc424c79U, 0xbd72df973dda9608U, 0xbdc24c793d424c79U,
  0xbec24c79beda9608U, 0x3ed483a4bdda9608U, 0xbe97cbbfbeaa02eaU, 0x3e8ba6f7bf4b680fU,
  0xbd424c793e8ba6f7U, 0x3df2df973ec85eddU, 0xbd424c793e859493U, 0x3cc24c793dda9608U,
  0x3cc24c793e2a02eaU, 0x3e059493bd72df97U, 0xbd11b95bbd11b95bU, 0x3dda9608bdda9608U,
  0x3f0594933e424c79U, 0xbe91b95b3e059493U, 0xbeeccd333d72df97U, 0xbe91b95b3dc24c79U,
  0xbfc0c7e0bf30154eU, 0xbeaa02ea3e11b95bU, 0x3d72df97bcc24c79U, 0x3e11b95bbe2a02eaU,
  0xbe5a96083e424c79U, 0x3c424c793e1dde22U, 0xbebc3a153d11b95bU, 0xbdaa02eabeb627b1U,
  0x3e72df9700000000U, 0xbc424c79bed483a4U, 0x3ea3f0863d11b95bU, 0xbece71413eb0154eU,
  0x3ed483a43f11b95bU, 0xbdda96083e8ba6f7U, 0xbd424c793d11b95bU, 0x3e1dde223dda9608U,
  0x3e1dde22be2a02eaU, 0xbe2a02eabe11b95bU, 0x3ec00f513ebbe277U, 0xbf0bdea200000000U,
  0xbf100b7dbf186533U, 0xbdb7b59c3ebbe277U, 0x3da70230be69cfdeU, 0x3e37b59cbf359f2eU,
  0x3efa83493e37b59cU, 0xbde9cfde3d270230U, 0xbdb7b59c3e859b5aU, 0x3eedfcb83dc86907U,
  0x3dfa83493e617628U, 0x3ec86907bdc86907U, 0x3f849023bf5b32e0U, 0x3e859b5a3f1c920dU,
  0x3ef229933e059b5aU, 0x3e50c2bd3d859b5aU, 0xbed91c72be2f5be6U, 0xbf24ebc3bd059b5aU,
  0x3e270230bc859b5aU, 0x3e964ec5be816e7fU, 0xbc859b5a3e1ea87bU, 0x3e9a7ba03efeb024U,
  0x3c859b5abd486907U, 0x3eb388c13f0bdea2U, 0xbf143858beaf5be6U, 0xbda70230bf443c2cU,
  0xbdb7b59c3ed4ef97U, 0x3f186533be164ec5U, 0xbc059b5abe0df510U, 0x3e89c835bcc86907U,
  0xbe4869073da70230U, 0x3dfa83493e2f5be6U, 0x3ed91c723d859b5aU, 0xbd059b5a3e164ec5U,
  0x3ea2d556bdc86907U, 0x3f65a303bf09c835U, 0x3f1865333f3df8e4U, 0x3f07b1c73eb7b59cU,
  0xbdc869073d270230U, 0xbe2f5be6be8df510U, 0xbef22993bd270230U, 0xbc859b5a3eab2f0bU,
  0x3e89c835be1ea87bU, 0x3d486907bd059b5aU, 0x3cc869073ed91c72U, 0xbe69cfde3e164ec5U,
  0xbe8ed414be9e21a9U, 0x3ca33b853dcc0a66U, 0xbe7f0d003eb7a2f6U, 0xbe04a05cU,
  0x3c233b853e6aa58fU, 0x3ef4d948beb28919U, 0xbe84a05c3d4c0a66U, 0x3e37a2f63d4c0a66U,
  0x3e6071d73ca33b85U, 0xbd233b85bc233b85U, 0x3cf4d9483df4d948U, 0xbe74d9483da33b85U,
  0x3ca33b853e2d6f3dU, 0x3e6071d73e93edf1U, 0x3dcc0a66beb7a2f6U, 0xbdf4d9483db7a2f6U,
  0xbe93edf13c233b85U, 0x3de071d7bfa1f50eU, 0xbde071d7bec6f08aU, 0x3d8ed414U,
  0x3ca33b853e89ba38U, 0x3d4c0a66bde071d7U, 0xbdb7a2f6U, 0xbeb28919be93edf1U,
  0x3d4c0a66be04a05cU, 0xbead6f3d3e7f0d00U, 0x3df4d948be04a05cU, 0x3e74d9483ea33b85U,
  0x3ec6f08abee58bb3U, 0x3e9e21a93e1907cdU, 0xbcf4d948bd8ed414U, 0x3c233b853df4d948U,
  0x3de071d73e04a05cU, 0x3df4d9483da33b85U, 0xbe2d6f3dbe37a2f6U, 0x3e6aa58f3e1907cdU,
  0x3e233b853e84a05cU, 0x3df4d948be6071d7U, 0x3d8ed4143d8ed414U, 0xbeb7a2f6be7f0d00U,
  0x3d4c0a66bf116102U, 0x3d74d9483ea33b85U, 0xbe6071d73e1907cdU, 0x3cf4d9483e74d948U,
  0xbd233b85be41d6aeU, 0xbd74d948be1907cdU, 0x3e772f4ebe1904e7U, 0x3ed3df683e772f4eU,
  0xbeaaacdb3e481a1bU, 0x3d8d3f9a3e1904e7U, 0xbf27bb87bda4ca34U, 0xbfbadc24bf1bf63bU,
  0xbf24ca343dd3df68U, 0x3da4ca343dbc54ceU, 0x3e772f4ebe53df68U, 0xbdeb6a023d6b6a02U,
  0xbc3c54ce3d8d3f9aU, 0xbe0d3f9abe017a4eU, 0xbdeb6a02beb67228U, 0x3e9904e73dbc54ceU,
  0xbe24ca34becdfcc1U, 0x3ebc54cebf27bb87U, 0xbebc54ce3ee5875bU, 0x3eaaacdb3ee5875bU,
  0x3c3c54ce3e3c54ceU, 0x3cbc54ce3deb6a02U, 0x3e3c54ce3dbc54ceU, 0xbd3c54ce3d6b6a02U,
  0xbd6b6a023dd3df68U, 0x3dd3df68be9904e7U, 0x3e9ee78e3e5fa4b5U, 0xbe53df683e017a4eU,
  0x3deb6a023d0d3f9aU, 0xbdeb6a02be772f4eU, 0x3cbc54cebf0a4e47U, 0xbea4ca343d3c54ceU,
  0x3d0d3f9a3cbc54ceU, 0x3e3c54cebd3c54ceU, 0xbd3c54ce3d0d3f9aU, 0xbda4ca343dd3df68U,
  0xbeaaacdb3dbc54ceU, 0x3da4ca34bec23774U, 0x3eb672283d0d3f9aU, 0xbe308f81bf1904e7U,
  0x3e875cf43e1904e7U, 0xbeeb6a023edfa4b5U, 0x3edfa4b53ed3df68U, 0xbd0d3f9a3f65875bU,
  0x3e0d3f9a3e875cf4U, 0x3e1904e73d6b6a02U, 0xbd6b6a02be1904e7U, 0x3d3c54cebe1904e7U,
  0xbea1421aU, 0x3f0911c9bed1a2bbU, 0x3e8101ae3dc18285U, 0xbea95234be418285U,
  0x3eb9726a3c8101aeU, 0xbe31624fbe9931ffU, 0xbf5dbae3bde1c2f0U, 0xbf39726a3e0101aeU,
  0xbe1121e4bfcb96a7U, 0x3f31624f3e9121e4U, 0xbea952343ed1a2bbU, 0xbe51a2bbbeb1624fU,
  0xbd0101aebd0101aeU, 0x3e8911c93f51a2bbU, 0xbe8101ae3e8101aeU, 0x3c8101aebe31624fU,
  0xbf1529f1be21421aU, 0xbe21421abd0101aeU, 0x3de1c2f0bf75eb34U, 0xbfd1a2bbbed9b2d6U,
  0x3eb9726a3e31624fU, 0x3f0509bb3f0509bbU, 0xbf1d3a0cbf1121e4U, 0xbc8101aebe1121e4U,
  0x3ed1a2bbbec18285U, 0xbe1121e4bf8f1dddU, 0xbe9121e4be51a2bbU, 0xbec992a03d418285U,
  0x3e71e326bf0509bbU, 0xbf1529f13da1421aU, 0xbed9b2d63ea95234U, 0xbda1421abff7ef3aU,
  0x3f0101ae3ee9d30bU, 0xbef1e3263ea95234U, 0xbe9931ffbed9b2d6U, 0x3e418285bda1421aU,
  0xbf3d7a783eb9726aU, 0xbef9f3413d0101aeU, 0x3e21421abc8101aeU, 0xbe61c2f0bf61c2f0U,
  0xbd8101ae00000000U, 0x3e71e326be9121e4U, 0xbfffff55bf1d3a0cU, 0x3ed9b2d63dc18285U,
  0x3e71e3263ed9b2d6U, 0xbed9b2d6bed9b2d6U, 0x3dbcb66abedc2a26U, 0x3dbcb66abda7be97U,
  0xbe8d88cf3dbcb66aU, 0xbf1aa3b33dd1ae3dU, 0xbdbcb66a3da7be97U, 0xbfa66f1abedc2a26U,
  0xbf030ce63c27be97U, 0x3dbcb66a3d51ae3dU, 0x3de6a610bdfb9de2U, 0x3d92c6c43e830ce6U,
  0x3d51ae3d3da7be97U, 0xbe884adbbe1d42aeU, 0xbe323a803dd1ae3dU, 0x3e4732533de6a610U,
  0x3dfb9de2bed6ec31U, 0x3e084adbbf2cfc8cU, 0xbeb77875bc27be97U, 0x3dbcb66abde6a610U,
  0xbd7b9de2beebe404U, 0x3ca7be97bdfb9de2U, 0x3d92c6c43dbcb66aU, 0x3e7b9de2bc27be97U,
  0xbdbcb66abe27be97U, 0x3cfb9de2be473253U, 0x3d27be97bde6a610U, 0xbe5c2a263dd1ae3dU,
  0x3de6a6103d27be97U, 0x3e884adbbd7b9de2U, 0xbe51ae3dbe9d42aeU, 0xbe830ce63d92c6c4U,
  0x3e12c6c4bd7b9de2U, 0x3cfb9de23dbcb66aU, 0xbd92c6c43e084adbU, 0xbe12c6c43e3cb66aU,
  0xbe9804b9be3cb66aU, 0xbe7121f93d27be97U, 0x3da7be9700000000U, 0xbca7be97bea280a2U,
  0x3cfb9de2bf1027caU, 0xbed1ae3dbd7b9de2U, 0x3e4732533d92c6c4U, 0xbdfb9de2bef121f9U,
  0x3c27be97bca7be97U, 0x3cfb9de23e3cb66aU, 0x3e473253bde6a610U, 0xbde6a610bde6a610U,
  0x3ea385993edae887U, 0x3e77eb963eb5fbe8U, 0xbee57546bef2a536U, 0x3dc872383dd2fef7U,
  0xbee2d217be72a536U, 0x3e72a536be4db897U, 0x3ee57546bf277a61U, 0x3ec32bd8beb89f18U,
  0xbe432bd83eb5fbe8U, 0x3dd2fef73dbde578U, 0xbe389f183d93b27aU, 0x3ec088a8bd9e3f39U,
  0xbd9e3f393e77eb96U, 0xbecdb8973d7d31f6U, 0x3e83df5bbeeabba6U, 0x3c28cbf93ca8cbf9U,
  0x3de818763e681876U, 0xbeb89f183e3de578U, 0x3ca8cbf93e238599U, 0x3e8925ba3ee02ee7U,
  0x3e0925babea0e269U, 0x3e6d5ed63d8925baU, 0x3c28cbf9be4db897U, 0x3e13b27a3e6d5ed6U,
  0x3e9e3f393e8925baU, 0x3e03df5b3d13b27aU, 0x3e1e3f393dd2fef7U, 0x3e13b27a3d28cbf9U,
  0xbd3de578bdd2fef7U, 0x3ec088a8be910f4aU, 0x3edd8bb73d681876U, 0xbe813c2b3e77eb96U,
  0x3ca8cbf93dd2fef7U, 0xbe4872383e4db897U, 0x3e681876be03df5bU, 0x3e8925ba3ec32bd8U,
  0xbe98f8da3ec5cf08U, 0x3e8925babd13b27aU, 0x3c28cbf9be18f8daU, 0xbe2e12593f24d731U,
  0xbef2a5363e13b27aU, 0xbe72a5363e487238U, 0x3e5845573f013c2bU, 0x3e13b27abeb0b589U,
  0x3e6d5ed63e3de578U, 0xbe86828abd7d31f6U, 0xbead088fbe1d4d99U, 0x3d7baf5cbda7ca3dU,
  0xbf0af37b3ee177c2U, 0x3dd1bcccbe3cc385U, 0x3e3246e13e27ca3dU, 0x3f15701ebefbaf5cU,
  0xbef6710a3e27ca3dU, 0x3e8316003e51bcccU, 0x3ec74028bdbcc385U, 0xbe0854523e27ca3dU,
  0x3d7baf5c00000000U, 0xbe474028bd51bcccU, 0x3dfbaf5c3ca7ca3dU, 0x3e66b6143ec201d7U,
  0x3d7baf5cbd7baf5cU, 0xbe51bcccbf1d4d99U, 0xbf3cc385bd7baf5cU, 0xbe474028bf918161U,
  0x3dd1bcccbe3cc385U, 0x3cfbaf5c3dbcc385U, 0x3d27ca3d3e51bcccU, 0x3d7baf5cbe3cc385U,
  0xbe12d0f5bda7ca3dU, 0xbeebf466be085452U, 0x3dbcc385be474028U, 0xbedc39703f0d92a3U,
  0x3dd1bcccbe8d92a3U, 0x3e980f473e831600U, 0x3f15701ebf1aae70U, 0x3e7baf5c3e3246e1U,
  0x3d27ca3d3cfbaf5cU, 0x3e7132b83d92d0f5U, 0xbe7baf5c3e92d0f5U, 0xbdd1bccc3d7baf5cU,
  0xbe7132b8bdd1bcccU, 0x3ead088f3da7ca3dU, 0x3e5c39703ee177c2U, 0xbdbcc3853e3cc385U,
  0xbdd1bcccbf27ca3dU, 0xbf4c7e7abd27ca3dU, 0x3e085452bfa67aa9U, 0xbd27ca3d3de6b614U,
  0x3ca7ca3d3e980f47U, 0x3e7baf5c3e27ca3dU, 0xbd27ca3dbe980f47U, 0xbda7ca3dbe085452U,
  0x3e67b1d2be84e239U, 0xbeb7fe27bf238c94U, 0xbf2540b6bd3eceadU, 0xbf585ca43e534040U,
  0x3e7c23653e084a7cU, 0xbdcc6fba3e67b1d2U, 0xbdbeceadbf0d66e0U, 0xbea6f4d8bf4c6fbaU,
  0xbe15eb88bf202451U, 0x3ea38c943e15eb88U, 0xbe7c23653d7552dfU, 0xbe928345be15eb88U,
  0xbeadc55e3e7c2365U, 0xbe7c2365bec236f0U, 0x3e534040bee4498fU, 0x3e7552dfbf490777U,
  0x3ee4498f3e7c2365U, 0x3ec90777bf585ca4U, 0xbf39b2493eb7fe27U, 0xbf1cbc0ebec59f33U,
  0x3e3eceadbcda10c6U, 0x3ea024513e1cbc0eU, 0xbe1cbc0ebd084a7cU, 0x3e60e14cbee0e14cU,
  0xbeff8ba8befc2365U, 0xbf1953cbbecc6fbaU, 0xbe8f1b023ebeceadU, 0x3e4c6fba3e084a7cU,
  0xbf3ecead3eb12da1U, 0x3eb7fe273de7b1d2U, 0xbe459f33bec59f33U, 0xbda38c94bf04e239U,
  0x3dbecead3dbeceadU, 0xbe0179f63e6e8259U, 0xbef1ea9cbe95eb88U, 0xbf1437673e4c6fbaU,
  0xbe95eb88bf032e17U, 0x3e8bb2bfbeaa5d1bU, 0x3d7552df3dcc6fbaU, 0x3eadc55ebd7552dfU,
  0xbe8f1b023da38c94U, 0xbe95eb883cda10c6U, 0xbf3495e4bee4498fU, 0x3db12da13cda10c6U,
  0x3e9283453e312da1U, 0xbe1cbc0ebe0179f6U, 0x3e2c9aef3deabe3bU, 0x3f5294103e41515eU,
  0x3ecbac95bf2c9aefU, 0xbe4838d800000000U, 0x3e86a1cf3e33826aU, 0x3cdcef47bd25b375U,
  0xbe8d89493ea23fb8U, 0xbeee31f93ecbac95U, 0x3e41515ebe9b583eU, 0xbeee31f9be1ecbfbU,
  0x3e0a158cbda5b375U, 0x3db3826abd97e481U, 0xbea927323ddcef47U, 0xbf467efa3e71a5b6U,
  0xbe032e12bd0a158cU, 0xbd8a158cbea92732U, 0xbeeabe3b3e9ecbfbU, 0x3ed29410bda5b375U,
  0x3e33826abe032e12U, 0xbe5cef47bf199e5fU, 0xbe832e123d0a158cU, 0xbe3a69e4be9470c4U,
  0xbe41515e3df88d30U, 0xbe10fd07be10fd07U, 0x3f5b35683f017434U, 0xbda5b375bf4f2053U,
  0x3d97e481be4f2053U, 0x3bdcef473db3826aU, 0x3cdcef47be832e12U, 0xbe2c9aef3ec1515eU,
  0xbf2ae1113ed97b8aU, 0x3e4f2053beeabe3bU, 0xbef1a5b6bd41515eU, 0x3d41515e3d0a158cU,
  0xbd8a158cbd97e481U, 0x3e8a158c3e25b375U, 0xbf3f97803e10fd07U, 0xbe7f74aabe17e481U,
  0x3e33826abd0a158cU, 0xbe8d8949bf3a69e4U, 0x3ecf2053bda5b375U, 0x3eba69e43e17e481U,
  0xbeff74aabf032e12U, 0xbe832e12bdb3826aU, 0xbe17e481be7f74aaU, 0xbdb3826a3bdcef47U,
  0xbea19cf6beafdf84U, 0x3dab1eaa3d181b42U, 0xbec7a3c73ecc64a1U, 0x3c181b42be51257bU,
  0xbdbe22123d6428e3U, 0x3ec7a3c73e34a05eU, 0x3dbe22123d6428e3U, 0xbc181b423d3e2212U,
  0x3df72c4bbdd1257bU, 0xbe2b1eaa3d8517daU, 0xbe0e998ebd6428e3U, 0xbe935a68be34a05eU,
  0x3e5aa72f3d981b42U, 0x3e181b423e9cdc1cU, 0x3dab1eaabe47a3c7U, 0xbe0517da3dab1eaaU,
  0xbed1257b3d6428e3U, 0xbd8517dabf935a68U, 0x3ce428e3bedf6809U, 0xbe34a05e3d981b42U,
  0x3e181b423e3e2212U, 0x3e6daa97be51257bU, 0xbce428e33ce428e3U, 0xbec7a3c7be51257bU,
  0x3c181b423d3e2212U, 0xbecc64a13ecc64a1U, 0x3c981b42bdf72c4bU, 0x3de428e33e805700U,
  0x3ed1257bbedaa72fU, 0xbe6daa973e2b1eaaU, 0x3e2b1eaa3c981b42U, 0x3e219cf63c181b42U,
  0x3de428e3U, 0xbe34a05e3e51257bU, 0xbe5aa72fbd981b42U, 0x3e6daa973dd1257bU,
  0x3e219cf63e805700U, 0x3ce428e3be34a05eU, 0x3d981b423dbe2212U, 0xbe6428e33e2b1eaaU,
  0xbc981b42bf96eb0bU, 0xbce428e33dd1257bU, 0x3e34a05e3e181b42U, 0xbc181b423ea65dd0U,
  0x3de428e33d3e2212U, 0x3dd1257b3d981b42U, 0xbed08c54be24e607U, 0xbf52f91fbec6d926U,
  0x3e727f73bf00861cU, 0x3d87cc7ebf99fc73U, 0x3e2e9934bd41ff8fU, 0x3e8ca6153eda3f81U,
  0xbec6d9263e87cc7eU, 0x3e68cc46be727f73U, 0xbf24e607bde8cc46U, 0xbe1b32d9be24e607U,
  0xbea00c703ce8cc46U, 0xbea9bf9dbc1b32d9U, 0xbeb84c62bf02f2e7U, 0xbee8cc46be727f73U,
  0xbf98c60e3d87cc7eU, 0xbd68cc463e1b32d9U, 0x3eae99343e07cc7eU, 0x3dd565ea3eae9934U,
  0xbc9b32d9be965942U, 0xbce8cc463ef27f73U, 0x3c9b32d9bf200c70U, 0xbdd565eabe87cc7eU,
  0xbd1b32d9be5565eaU, 0xbf055fb2bea9bf9dU, 0xbf52f91fbf7012a8U, 0xbe9b32d9bf35df96U,
  0x3dae9934bf93ec77U, 0xbc9b32d9bc9b32d9U, 0x3e8ca6153e4bb2bdU, 0xbeda3f813e41ff8fU,
  0x3ef7590abe5f1918U, 0xbf29bf9dbde8cc46U, 0xbdd565eabd68cc46U, 0xbe8ca6153dfc32a1U,
  0xbe87cc7e3c9b32d9U, 0xbf3ab92dbedf1918U, 0xbeb372cbbecbb2bdU, 0xbf904946bdae9934U,
  0x3ce8cc463d9b32d9U, 0x3e727f733ea9bf9dU, 0x3eb84c623e7c32a1U, 0xbdc1ff8fbdae9934U,
  0xbdd565ea3ed08c54U, 0xbe24e607bed565eaU, 0x3dd565eabe68cc46U, 0xbe68cc46bea00c70U,
  0xbf02556f3e0ef259U, 0x3c0689bd3e282c2cU, 0x3f81485c3ec9ce9cU, 0xbe73d9a73e8ef259U,
  0x3d8689bdbe282c2cU, 0xbd975af5beded421U, 0xbee3086f3e5a9fd3U, 0xbf1b8f43bd282c2cU,
  0x3e49ce9cbec9ce9cU, 0x3f046f963e0ef259U, 0x3d8689bdbdeb710bU, 0xbd6b710bbc8689bdU,
  0xbc8689bdbed66b85U, 0x3eeb710b3d49ce9cU, 0x3e49ce9c3f857caaU, 0xbe38fd64bea82c2cU,
  0xbe6b710b3efc4242U, 0x3e1fc390beb094c8U, 0x3c0689bdbf08a3e4U, 0xbf02556fbf4e02e9U,
  0x3e5237373e282c2cU, 0x3deb710b3f1326a7U, 0x3da82c2cbdda9fd3U, 0xbf3b178bbd0689bdU,
  0x3cc9ce9c3d975af5U, 0x3f63086f3f282c2cU, 0xbe9fc3903e3094c8U, 0xbdeb710bbea3f7deU,
  0xbd49ce9cbece02e9U, 0xbe8abe0b3dc9ce9cU, 0xbf5ed4213e82556fU, 0x3d6b710bbf1fc390U,
  0x3f110c803e73d9a7U, 0xbdda9fd33e416600U, 0xbdeb710bbd282c2cU, 0x3d6b710bbef80df4U,
  0xbf1da9693e3094c8U, 0xbda82c2c3eb8fd64U, 0xbd6b710b3d6b710bU, 0xbeefa559bef80df4U,
  0x3ece02e93ece02e9U, 0x3eda9fd3bd49ce9cU, 0xbeeb710bbf438027U, 0x3d282c2c3e523737U,
  0x3d282c2c3f046f96U, 0x3c8689bd3d49ce9cU, 0x3d5ff95cbea7fb05U, 0x3d9cc8273db32de3U,
  0xbeb32de33e27fb05U, 0xbf2ac7bc3e119548U, 0x3e5ff95cbe49939fU, 0x3cb32de3beb32de3U,
  0xbe49939fbead9474U, 0x3d5ff95cbd332de3U, 0x3e54c67e3d86626aU, 0x3e119548bcb32de3U,
  0xbdf65f183e765f18U, 0xbe80c8fbbc332de3U, 0xbd86626a3d332de3U, 0x3e919548bc332de3U,
  0xbd5ff95cbea26196U, 0xbd5ff95cbcb32de3U, 0x3eb8c752be5ff95cU, 0x3d332de33d06626aU,
  0xbd06626a3f0395b3U, 0x3e06626a3d332de3U, 0x3c332de33dc9939fU, 0x3d332de33d06626aU,
  0xbe27fb053d332de3U, 0x3dc9939fbe972eb8U, 0x3dc9939fbc332de3U, 0xbebe60c1bd06626aU,
  0x3e27fb053d86626aU, 0xbdb32de33ea26196U, 0xbfb1c787be765f18U, 0xbf00c8fb3d06626aU,
  0x3cb32de3bdc9939fU, 0x3d06626abe06626aU, 0xbddff95c3e6b2c3aU, 0xbe06626abd06626aU,
  0xbe80c8fbbe54c67eU, 0xbd332de3bd5ff95cU, 0x3e332de33d9cc827U, 0x3ddff95cbeb32de3U,
  0x3e49939f3d06626aU, 0xbefbf887be1cc827U, 0x3e1195483d06626aU, 0x3d5ff95cbf146200U,
  0xbe3e60c13cb32de3U, 0x3e54c67e3e54c67eU, 0x3d332de3bd86626aU, 0xbe332de3be1cc827U,
  0xbdcf55073eaabe7eU, 0xbe0627f53ec62f64U, 0xbe1e8c50bf0dc752U, 0xbe0c410cbd5b8734U,
  0x3d925a233e5b8734U, 0x3daabe7ebe3d09c2U, 0x3ec0164e3e556e1dU, 0xbf13e068bd4322d9U,
  0x3d8627f5U, 0x3e8f4d973e4f5507U, 0xbe6dd278bd2abe7eU, 0x3e30d795bdcf5507U,
  0x3e4322d9bd125a23U, 0x3e800ede3f07ae3bU, 0x3f04a1af3e6dd278U, 0x3cf3eb8fbe9566aeU,
  0xbee7b9623ed26192U, 0xbe9b7fc53e0627f5U, 0x3db6f0ab3e8f4d97U, 0x3e9b7fc5bf0dc752U,
  0x3bc322d93e1e8c50U, 0x3e18733a3f0c410cU, 0xbe556e1d3cf3eb8fU, 0x3bc322d93ee7b962U,
  0x3cf3eb8fbde7b962U, 0x3e3d09c23d925a23U, 0xbe24a5673ebd09c2U, 0x3e556e1dbe24a567U,
  0xbe0c410cbefa04a6U, 0x3de7b9623d8627f5U, 0xbf0934813e2abe7eU, 0x3e9e8c503e4f5507U,
  0x3e8934813d125a23U, 0xbe4322d9bbc322d9U, 0x3eb3e4203bc322d9U, 0x3e0627f5bf2f514fU,
  0x3f04a1af3f093481U, 0x3efa04a63f0abac6U, 0xbddb87343d8627f5U, 0xbf419c933c925a23U,
  0x3e73eb8f3d125a23U, 0x3ec322d93d5b8734U, 0x3dcf5507bf356a66U, 0x3d2abe7e3e24a567U,
  0x3c4322d93ed87aa9U, 0xbd5b87343d2abe7eU, 0x3e858830bd55a6b3U, 0x3f63011ebe320aeaU,
  0x3e55a6b33ef9427cU, 0x3d0e6f22be89fba9U, 0xbd0e6f223ead9771U, 0xbd55a6b3bd0e6f22U,
  0xbf203d06bea4b07fU, 0x3f5e8da5bdf9427cU, 0xbf3444a7bf43d8cfU, 0x3f2923f83ede8da5U,
  0xbcd5a6b33e92e29bU, 0x3e5e8da5be8114b7U, 0xbe6774973e203d06U, 0x3df9427c3f2276c3U,
  0xbe89fba93d0e6f22U, 0x3ea923f83db20aeaU, 0xbdb20aea3d79427cU, 0xbde774973e0e6f22U,
  0xbc0e6f22bf3d2b99U, 0xbf60c7623f1e034aU, 0x3f034e73bf2923f8U, 0x3f034e733f203d06U,
  0xbf09fba9bd79427cU, 0x3e2923f83de77497U, 0x3f5e8da5bf0114b7U, 0x3df9427c3e975614U,
  0x3db20aeabe858830U, 0x3e320aea3e705b89U, 0xbd320aea3e55a6b3U, 0xbf058830be203d06U,
  0x3f3af1dd3d79427cU, 0xbefdb5f5bf8d5244U, 0x3f3d2b993f0c3565U, 0xbd79427c3ea923f8U,
  0x3d8e6f22bf07c1ecU, 0xbe3af1dd3e92e29bU, 0x3ede8da53f3444a7U, 0xbe43d8cf3ea4b07fU,
  0x3e89fba93de77497U, 0x3e8114b7be8114b7U, 0xbdf9427cbd79427cU, 0xbe89fba9bf12e29bU,
  0xbf8d52443f058830U, 0x3f0c3565bf0e6f22U, 0x3f0e6f223f536cf6U, 0xbe8114b7bea4b07fU,
  0x3d8fa0d0be5f6befU, 0x3d5f6befbe07a61aU, 0xbeab8e4e3e179b87U, 0x3e3786603d3f8116U,
  0x3d1f963d3cff56c8U, 0xbf5f6befbe7f56c8U, 0xbe775c12bedb6e94U, 0xbd7f56c8bbff56c8U,
  0x3dbf8116bd7f56c8U, 0xbcff56c8bc7f56c8U, 0xbe1f963d3e87a61aU, 0xbebb83bbbd5f6befU,
  0xbe07a61abd5f6befU, 0x3e979b873d5f6befU, 0xbd7f56c8befb596dU, 0xbdbf81163bff56c8U,
  0x3e8fa0d0be4f7682U, 0x3dbf8116bdaf8baaU, 0xbe3786603ed373deU, 0x3d7f56c83d9f963dU,
  0x3e477bcc3dff56c8U, 0xbd1f963d3d3f8116U, 0x3d7f56c8U, 0x3d8fa0d0be6766a5U,
  0x3dcf76823d9f963dU, 0xbe3f81163d1f963dU, 0x3e2f8baa3cff56c8U, 0x3d1f963d3ddf6befU,
  0xbf7d581abe5f6befU, 0xbec37e713d7f56c8U, 0x3cbf8116bcbf8116U, 0x3cff56c8bcbf8116U,
  0x3d7f56c83e3f8116U, 0xbe2790f33def615cU, 0xbebf8116bc7f56c8U, 0xbebb83bb3e2790f3U,
  0x3d9f963d3e179b87U, 0x3d9f963dbf07a61aU, 0x3cff56c83d3f8116U, 0xbeeb6400bddf6befU,
  0x3e2790f33dbf8116U, 0x3d8fa0d0beab8e4eU, 0xbe2790f3bd9f963dU, 0x3dcf76823e3f8116U,
  0x3dff56c83bff56c8U, 0xbdaf8baabdaf8baaU, 0xbe5720753e1f9c36U, 0x3f18abae3e11bb26U,
  0x3f5c54db3e72e295U, 0x3debf20d3e9c23f2U, 0x3e493f65bf0fff04U, 0x3e0aca9ebec24eddU,
  0xbe3b5e553e9f9c36U, 0xbf53a8313ed3a831U, 0x3e268cbebcde10fdU, 0x3d5e10fd3cde10fdU,
  0x3df9d31dbd98abaeU, 0xbd268cbe3dde10fdU, 0x3d8aca9ebe8061d2U, 0xbea68cbe3db46dceU,
  0xbe83da163d79d31dU, 0xbdb46dcebe9c23f2U, 0xbeb0f58a3d268cbeU, 0x3e0aca9ebdebf20dU,
  0x3d79d31dbe6bf20dU, 0xbe1f9c36bf2a0502U, 0x3bde10fd3e346dceU, 0xbe18abaebe0aca9eU,
  0x3da68cbe3debf20dU, 0xbef2e2953e493f65U, 0x3d5e10fd3e9f9c36U, 0xbda68cbebede10fdU,
  0xbe79d31d3debf20dU, 0x3e3b5e553debf20dU, 0x3debf20dbea3147aU, 0x3d424edd3ee18941U,
  0xbf4783433f0aca9eU, 0x3eb46dcebed3a831U, 0xbe0aca9ebe346dceU, 0x3d98abaebd79d31dU,
  0x3cde10fdbbde10fdU, 0x3d98abae3e2d7d46U, 0xbf1a67d03e346dceU, 0xbe2d7d463e650185U,
  0x3df9d31d3e18abaeU, 0xbe11bb26bf137748U, 0x3e9c23f23ca68cbeU, 0x3e79d31d3e87525aU,
  0xbe1f9c36bf1f9c36U, 0xbe3b5e553df9d31dU, 0xbe0aca9ebe11bb26U, 0x3cde10fdbdebf20dU,
  0x3e75880cbcd5fd0eU, 0xbd65ef233e8f0507U, 0xbda6009b3e1b85a7U, 0xbd43babc3e128f41U,
  0x3de984bc3e01cc9dU, 0xbb34ab953e2fe5e7U, 0xbccd125f3d8c1b93U, 0x3e045cd2bc669becU,
  0xbd36971dbd43d69aU, 0x3cbff20e3f1c0b8cU, 0xbc1730c83deb8a28U, 0x3e3744b93daf65deU,
  0x3e76f4bfbcc73901U, 0xbc2220303e755b4bU, 0x3ed025873dc66c3bU, 0x3e64730b3c128e69U,
  0xbfa460193ea524c3U, 0x3ef30f00bf665e8eU, 0x3f9dbd97bf81bdeaU, 0x3f2a024ebfaf5539U,
  0xbf74b1febf876ff0U, 0x3ec2810bbf597215U, 0x3f336483bf4b67ddU, 0xbf67274b3f09cf36U,
  0x3f2d299c3efd10b5U, 0x3efa4821bf945547U, 0x3f070338bf7ef4eaU, 0xbf9ceb123f5b2b74U,
  0xbf8b412b3f331407U, 0x3efffb03bf6512d7U, 0xbf8ed40ebf628d87U, 0xbf82363a3f08b420U,
  0xbcaf9e9aU,
};


ai_handle g_road_cnn_weights_table[1 + 2] = {
  AI_HANDLE_PTR(AI_MAGIC_MARKER),
  AI_HANDLE_PTR(s_road_cnn_weights_array_u64),
  AI_HANDLE_PTR(AI_MAGIC_MARKER),
};

